6
1
5
4
-9
11
-2
-15
-17
2
5
3
-16
-22
-17
-20
-34
-33
-28
-31
-16
-6
-3
-9
0
4
8
-24
-17
-11
-1
-4
0
3
0
5
-4
3
-2
4
-7
-5
-11
-26
-18
-4
6
1
-8
10
-15
-40
-22
-13
1
3
1
0
-6
-3
-6
0
-4
-5
-7
-5
-15
-22
-24
-14
-19
-25
-16
-9
-39
-27
-11
-1
-6
-5
0
-3
-4
-4
0
-2
-2
1
1
-2
-5
-1
0
-16
-26
-34
-40
-32
-25
-12
1
2
-11
-4
-3
-4
-9
0
7
2
0
2
8
2
-1
10
4
-8
-29
-61
-10
-41
-20
-5
2
-2
-8
-10
-2
-4
0
0
0
-3
1
5
4
-1
1
1
7
6
-15
-64
3
-2
-22
-7
-4
-7
-10
3
2
0
3
1
1
1
8
8
2
6
3
0
2
5
-3
-55
13
3
7
1
-7
-12
-6
-1
-3
-2
-1
0
5
7
7
17
13
8
2
0
-2
10
8
-39
12
3
5
-4
-8
-7
-1
-3
0
-10
0
0
-4
-4
-1
10
5
9
0
0
0
5
0
-38
14
-4
-3
-6
-7
-5
-4
-6
-2
-9
-2
-8
-12
-25
-14
-1
-4
0
5
11
9
9
0
-29
5
-3
-8
-1
-1
0
-4
-10
-6
-2
-4
-8
-29
-35
-22
-7
-3
-1
-2
10
5
14
9
-11
2
-10
-13
1
4
5
1
-4
0
3
0
-12
-33
-36
-26
-6
-4
-5
-6
-2
2
14
12
8
-16
-17
-4
3
9
6
9
6
-2
5
7
-17
-34
-44
-30
-7
0
-5
-5
-2
3
15
21
14
-23
-13
7
7
3
8
8
1
6
1
-5
-21
-38
-43
-27
-12
-7
-9
2
6
8
12
12
5
-16
-3
15
8
12
10
13
9
5
5
-8
-36
-43
-34
-20
-5
-3
3
8
3
0
10
3
-6
-30
-6
10
5
8
1
12
14
16
7
-17
-40
-38
-21
-3
3
2
-1
6
3
2
4
-1
-13
-25
-7
-1
1
3
3
8
14
20
9
-13
-34
-29
-12
0
1
5
3
0
6
4
8
-3
-12
-18
-12
0
4
0
9
11
15
14
15
0
-19
-17
-10
-2
3
1
1
0
5
9
0
-6
-5
-19
-4
1
8
4
9
3
7
13
12
8
-5
-7
-3
-1
0
-2
-6
-2
5
5
0
-11
-14
-8
-3
-3
8
3
0
4
3
6
16
8
4
1
-3
1
-1
-4
-4
-4
1
5
-7
-12
-18
-6
-12
-10
0
6
8
4
10
9
14
9
9
0
0
4
-6
-3
-5
-4
4
0
2
-8
-18
-8
-21
-15
-7
-2
1
7
16
15
14
16
18
16
9
5
6
0
-5
-9
-3
3
0
-13
-16
-17
-26
-17
-7
-1
-1
0
2
6
4
12
8
5
-2
0
-8
-13
-25
-21
-18
-12
-21
-24
-21
-28
-39
-19
-13
-15
-22
-19
-21
-21
-25
-23
-20
-25
-33
-28
-30
-39
-49
-51
-48
-39
-39
-34
-26
13
11
-26
-5
17
-12
-13
-13
-5
12
22
11
11
28
31
13
2
0
1
-11
-10
-4
-1
-2
20
17
7
-9
-11
-2
-13
-16
-23
-16
-5
-5
-13
1
8
-6
-17
-16
-12
-20
-24
-28
-27
-25
23
-3
11
9
-1
3
-4
-2
-19
-21
-13
-5
-9
-10
-5
-16
-17
-15
-9
-13
-24
-29
-35
-47
25
4
19
20
9
4
-13
-15
-14
-16
-15
-9
-8
-7
-12
-21
-14
-10
-11
-4
-6
0
-12
-39
-2
9
9
7
1
-10
-16
-12
-9
-15
-16
-11
-7
-10
-19
-15
-14
-3
-4
1
2
2
-7
-34
-21
-2
6
-5
-16
-17
-19
-17
-11
-13
-7
-8
-13
-15
-21
-20
-12
-5
-2
-3
-5
-11
-22
-53
-26
-18
-14
-19
-13
-16
-17
-15
-11
-14
-12
-6
-3
-15
-15
-10
-8
-6
-4
-4
-13
-23
-33
-63
-38
-22
-27
-29
-12
-3
-6
-18
-5
-3
-1
2
3
7
-2
-2
-1
-10
-14
-16
-12
-27
-39
-50
-27
-20
-25
-41
-33
-11
-14
-13
-4
-3
0
0
16
19
11
-2
-3
-17
-12
-12
-10
-30
-42
-45
-21
-15
-23
-29
-29
-16
-19
-15
-7
-4
-5
9
29
27
12
-3
-12
-8
-12
-7
-8
-19
-29
-37
-17
-6
-17
-19
-11
-11
-6
-12
-13
-11
-5
15
31
23
10
1
-10
-10
-10
0
-1
-2
-16
-27
-6
8
0
-5
-8
-3
-3
-3
-20
-27
-6
15
33
20
16
0
-10
-12
-10
-1
3
-13
-14
-29
13
24
12
0
-11
-5
0
-11
-35
-25
3
25
29
24
9
-2
-22
-24
-14
-7
-5
-5
-10
-13
25
21
-1
-17
-18
-6
6
-15
-23
-21
4
30
25
21
6
-13
-30
-39
-31
-24
-14
-19
-15
-15
20
3
-13
-19
-20
-5
-3
-10
-20
-14
11
30
21
22
-10
-28
-40
-39
-27
-10
-12
-19
-20
-24
-17
-45
-22
-34
-34
-13
-5
-5
-17
-11
8
28
24
13
-26
-38
-38
-16
0
1
-1
-5
-12
-21
-6
-36
-30
-55
-37
-20
-12
-6
-13
-15
11
19
18
5
-30
-31
-14
-3
1
4
-5
-3
-4
3
11
12
-60
-52
-26
-4
0
1
-6
-6
8
17
6
-1
-13
-7
7
15
10
5
1
0
4
13
11
20
-47
-38
-14
0
6
6
5
2
10
8
4
3
0
10
15
11
6
2
0
-3
5
14
0
11
12
11
6
6
5
6
5
0
-9
-1
0
-1
0
7
17
17
14
6
-1
-6
5
20
-15
0
14
30
18
7
6
6
0
1
-7
-8
-2
6
5
10
7
13
9
1
-4
-13
0
19
-10
-11
10
25
18
5
0
7
1
0
-3
-1
-4
1
10
7
11
12
4
-5
-18
-18
-12
12
-9
-9
-4
4
3
-5
-5
-5
-13
-12
-10
-7
-11
-13
-6
0
8
6
5
-11
-17
-23
-18
10
-25
-21
-17
-12
-19
-17
-8
-22
-30
-29
-24
-23
-23
-39
-38
-39
-15
-2
-6
-14
-12
-27
-17
4
-23
4
4
-24
-9
9
16
17
23
17
22
9
14
12
9
1
-12
-20
-18
-12
-27
-2
10
13
0
-9
-15
-17
0
3
27
22
25
27
22
18
17
13
10
2
-5
-7
-10
-12
-17
-21
4
9
8
-22
-6
6
12
12
18
20
21
15
10
11
8
6
6
4
-1
-2
0
-12
-23
-28
-11
-1
0
0
0
-3
8
3
2
5
3
7
5
0
8
8
7
13
1
0
2
0
-5
-18
-26
-17
3
8
4
6
2
7
10
1
2
5
4
4
4
3
7
2
0
0
-6
1
-6
-20
-38
-33
-1
15
11
3
4
0
4
4
4
2
0
3
4
5
-2
-1
-3
-5
-5
-1
-3
-18
-46
-37
-10
13
13
5
-6
0
-4
2
-2
2
1
0
4
7
-3
-1
-1
1
0
0
0
-4
-31
-53
1
7
4
7
0
-6
-2
5
5
4
0
-1
9
6
9
2
3
1
-1
-4
-1
-8
-26
-66
-1
3
6
10
6
0
-2
0
3
-2
-1
-2
0
0
0
3
1
0
1
-8
-2
-6
-27
-44
-6
1
9
14
6
-2
-5
-11
-20
-21
-22
-34
-30
-20
-14
-6
0
2
2
0
-2
-8
-12
-7
-5
-6
-3
-7
-24
-27
-28
-19
-27
-27
-33
-33
-34
-24
-13
-15
-9
-7
-3
-6
-7
-16
2
35
-5
-20
-39
-41
-47
-39
-27
-21
-16
-9
-6
-3
-8
-15
-14
-7
-3
0
-1
-2
-10
-6
12
64
-6
-25
-47
-46
-39
-19
-11
-9
-8
-2
-3
-3
-1
-10
-9
-7
-7
0
-7
-7
-5
1
20
53
-5
-9
-19
-8
-13
-4
-8
-6
-3
-12
-7
5
-3
-3
0
-7
-3
-5
0
-9
-7
-3
22
55
7
12
8
9
7
-7
-2
0
1
5
4
9
2
-2
3
-1
2
-1
0
4
0
-2
15
56
14
15
18
15
6
1
-3
-2
2
5
9
11
2
-1
0
-2
2
-4
1
1
2
2
21
57
10
9
18
11
0
0
-1
3
3
9
14
14
5
1
7
11
6
0
-2
2
12
4
20
56
-8
2
11
5
2
5
8
2
10
6
10
12
2
5
3
7
1
0
0
6
6
3
21
39
-3
4
2
1
8
4
7
3
7
6
5
8
4
3
6
2
0
4
7
9
15
12
11
34
5
5
0
5
4
4
10
5
10
11
9
3
-3
-2
3
4
9
9
5
3
7
4
14
21
19
11
6
12
8
7
9
7
7
9
2
-2
-3
-3
-1
6
5
13
9
5
14
11
12
13
4
8
-2
-1
3
8
12
14
8
9
8
1
2
-4
-3
2
9
14
12
20
14
18
17
21
2
-4
-10
-6
-6
-1
-1
0
-6
-3
0
1
0
3
2
1
8
8
5
4
6
6
20
33
-18
-22
-31
-34
-28
-25
-24
-24
-18
-21
-17
-8
-5
0
-2
0
-7
-13
-11
-11
-13
-10
15
36
2
19
4
19
4
-17
15
-1
9
16
19
13
1
-7
2
-4
-14
-17
-18
-15
-22
-26
-24
-38
12
3
17
17
8
23
19
12
10
22
18
23
16
11
8
10
2
4
2
-19
-41
-49
-33
-30
-1
17
24
23
20
15
8
10
9
17
12
14
9
9
10
0
3
6
0
-4
-18
-40
-61
-38
26
18
17
17
14
9
7
11
14
7
7
6
0
4
3
-1
1
1
-4
-7
-14
-13
-36
-52
17
6
18
17
8
9
5
7
9
2
3
3
7
8
7
6
0
-3
-6
-9
-8
-14
-18
-23
15
4
16
10
8
5
0
3
6
2
4
8
7
5
2
0
3
-1
-1
-7
-14
-13
-22
-25
1
9
15
12
4
0
1
0
4
7
6
9
7
11
1
7
0
7
0
3
-5
-19
-42
-58
12
14
14
2
4
8
5
0
0
-3
-6
1
7
11
5
5
5
4
4
4
5
-6
-51
-87
20
22
12
1
2
0
-4
-7
-15
-15
-14
-8
5
10
5
7
5
8
8
8
8
3
-32
-77
26
33
11
2
-5
-12
-19
-21
-18
-16
-11
1
15
5
8
5
6
6
5
4
7
1
-24
-50
16
15
0
-2
-10
-16
-16
-13
-6
-3
-1
9
12
2
7
2
3
4
-4
-10
-18
-16
-23
-27
13
5
-9
-12
-21
-14
-9
-6
-6
-6
1
9
8
-2
0
7
3
1
-10
-26
-37
-35
-25
-21
17
-4
-7
-13
-15
-15
-7
-7
-8
-12
-4
5
4
3
3
1
4
-5
-12
-13
-19
-25
-16
-17
16
0
-4
-16
-19
-18
-13
-8
-5
-4
2
10
1
1
-3
1
-2
-2
1
-1
-6
1
3
-13
12
15
3
0
-9
-16
-17
-10
-10
0
3
3
0
-4
-10
-2
-3
0
1
-4
-4
10
21
-8
17
24
14
3
-5
-11
-15
-25
-19
-13
-4
-3
-7
-14
-5
-5
2
4
0
-4
6
9
-3
-29
31
25
17
8
-3
-5
-14
-20
-25
-19
-18
-13
-16
-6
4
4
5
-3
-1
-1
6
6
-10
-46
22
18
18
11
2
0
-4
-11
-17
-16
-23
-14
-7
0
8
9
5
1
0
5
4
0
-7
-29
10
13
11
7
14
1
3
5
-3
-13
-13
-7
0
-2
4
3
7
5
1
0
-6
-2
-10
-29
12
9
14
3
4
8
-2
0
-8
-6
-10
-10
-1
0
6
5
8
2
3
-1
-8
-5
-18
-30
18
15
8
4
6
6
4
2
-2
-1
-2
-7
-6
3
0
4
7
5
3
-4
-4
-12
-29
-40
35
31
17
8
9
5
-6
-1
-1
0
-8
-3
2
0
2
2
5
2
-3
-6
-11
-10
-27
-34
22
23
15
11
15
14
11
6
7
10
7
3
5
1
0
6
3
0
-3
-9
-12
-18
-24
-23
17
21
17
16
29
32
28
25
26
22
19
21
14
9
8
10
-3
-6
0
-7
-11
-8
-18
-15
-1
-28
-26
-12
-47
-41
-59
-56
-58
-68
-80
-41
-29
-41
-42
-40
-47
-59
-45
-26
-30
-32
-32
-6
-8
-13
-17
-14
-19
-29
-35
-41
-45
-51
-53
-49
-41
-37
-32
-26
-19
-14
-6
-4
-13
-21
-2
-1
1
0
3
-14
-11
-8
-13
-29
-31
-22
-19
-21
-18
-16
-16
-11
-14
0
15
21
22
26
19
12
-15
15
8
-3
-15
-13
-11
-6
-12
-12
-15
-13
-15
-12
-8
-9
-8
0
-2
-5
1
19
9
0
-14
-7
6
5
-9
-10
-4
-4
-12
-15
-21
-17
-22
-20
-19
-16
-16
-6
-9
-11
4
11
4
-15
-14
-5
14
14
0
-3
0
-5
-11
-13
-24
-22
-23
-21
-18
-18
-15
-12
-5
-10
-3
5
5
1
-7
-9
7
5
0
-2
-8
-8
-8
-16
-19
-19
-19
-21
-18
-16
-9
-9
-5
-12
-3
-5
-2
-1
-20
-19
-8
-12
-3
-4
-2
-12
-7
-13
-9
-16
-20
-22
-17
-12
-10
0
-2
-4
-8
-10
-15
-14
-23
-17
-6
-11
-11
-14
-2
-2
-6
-8
-4
-21
-36
-24
-2
0
0
0
-7
-2
-9
-20
-29
-37
-23
-15
-10
-12
-4
-11
5
7
7
8
10
-21
-34
-13
8
0
0
-3
-6
-7
-10
-21
-41
-48
-16
-18
-23
-10
0
7
9
15
16
23
19
-5
-27
-3
12
7
0
-1
2
-2
-6
-18
-25
-33
-19
-13
-5
0
14
13
16
12
15
26
17
-7
-12
8
14
14
2
7
14
15
7
0
-7
-11
-22
7
9
18
15
12
18
10
18
20
15
-9
-6
12
15
17
15
4
6
11
6
-10
-21
-23
-16
10
15
12
12
12
12
9
16
20
13
-3
-1
12
21
16
14
7
1
1
1
-9
-29
-35
-6
0
-7
-5
1
13
12
9
8
1
-4
-5
2
22
29
13
11
5
4
0
2
-8
-27
-41
-10
-19
-19
-15
-3
10
18
9
0
1
1
5
15
24
17
11
5
0
5
9
1
-7
-25
-38
-13
-21
-16
-6
4
3
8
6
-2
-5
0
9
18
15
13
5
-2
0
-1
0
-5
-16
-20
-41
-7
-5
-3
-7
-2
1
-6
-13
-20
-19
-9
2
11
14
5
3
-6
-8
-5
-6
-18
-28
-31
-47
0
3
-8
0
-2
-7
-8
-14
-12
-15
-10
-6
2
14
4
-2
0
-4
-6
-11
-19
-32
-33
-41
-3
-8
-5
-12
-16
-19
-21
-16
-10
-14
-11
-7
0
-2
-2
-2
-5
-4
0
-5
-2
-6
-19
-30
-17
-19
-27
-21
-23
-15
-8
-10
-9
-2
-3
-5
1
1
1
1
0
-2
5
0
-5
-1
-13
-19
-21
-33
-39
-22
-1
5
7
-2
4
3
1
3
5
2
6
5
14
9
10
10
5
-6
-15
-10
-28
-29
-43
-16
0
2
1
2
8
3
4
4
5
8
7
0
2
5
9
5
0
-2
-10
-10
-25
-14
-12
-8
-8
-15
-25
-22
-10
-22
-27
-29
-21
-23
-24
-28
-30
-23
-20
-10
-4
-5
-12
-8
-28
-12
8
7
-23
22
-6
-3
-36
-39
-39
-37
-32
-19
-3
7
16
16
8
3
-8
-14
-11
1
-32
8
-6
3
5
0
-5
-2
-3
-12
-8
-6
-1
7
4
5
17
9
19
26
19
2
1
11
1
7
-40
-24
-14
-11
-11
-7
3
8
1
0
0
12
10
12
10
8
3
14
15
13
17
30
-32
-17
-22
-19
-12
-8
-5
-3
5
3
0
-4
-1
4
2
10
13
6
9
8
11
20
20
36
-46
-29
-19
-7
5
1
-2
2
0
0
0
4
1
2
4
7
6
11
6
8
4
13
23
48
-26
-48
-33
-6
2
-3
7
3
0
7
0
0
4
2
9
7
5
12
4
6
5
14
30
45
-29
-54
-31
-14
-4
-5
0
0
4
6
1
-3
-2
-6
0
1
3
7
9
9
14
17
37
47
-40
-32
-23
-10
-2
-2
0
3
10
13
8
5
-10
-9
-11
-9
-2
-2
6
14
12
21
44
61
-64
-22
-17
-9
-7
-1
7
12
11
14
16
10
0
-7
-10
-10
-12
-10
-4
4
6
36
61
90
-59
-34
-12
-7
0
11
11
13
12
5
12
11
3
-4
-6
-9
-13
-19
-21
-27
-19
11
52
92
-44
-29
-9
0
3
7
3
0
5
12
11
16
-2
-10
-17
-9
-12
-8
-21
-36
-45
-43
-5
36
-30
-6
1
6
5
0
-1
-1
11
12
16
11
-1
-10
-18
-12
-13
-8
-7
-14
-33
-55
-67
-40
-17
5
4
3
0
4
0
8
9
10
11
0
-6
-13
-12
-15
-6
-10
-8
-12
-10
-15
-35
-46
-4
9
0
-6
-14
-6
2
4
10
11
8
3
-7
-17
-21
-10
-10
-1
-11
-5
-4
6
-1
-19
7
1
-2
-7
-15
-19
-13
-2
0
3
0
-8
-17
-18
-15
-8
-4
3
-2
0
-2
3
10
-10
8
-3
3
13
6
-7
-16
-16
-15
-8
-15
-23
-18
-12
-5
-2
-2
0
-1
-3
1
2
10
-13
-11
5
4
9
11
6
-10
-13
-12
-6
-11
-13
-4
-5
-1
1
1
-2
5
1
-1
5
5
-3
18
9
4
3
2
2
1
-2
-6
-7
-7
-9
-1
-8
-2
1
0
2
2
3
2
9
6
-3
24
7
2
8
2
0
0
0
0
0
0
-9
-5
0
0
2
0
-1
-1
0
4
13
1
-10
2
5
2
-3
-3
-2
0
1
-5
0
4
-1
0
-3
4
4
4
7
2
8
8
8
5
3
-8
2
0
-1
-9
-5
0
-4
0
-2
1
5
-1
4
1
6
0
0
7
7
1
2
10
9
4
3
11
1
-5
-5
-1
2
2
2
4
1
1
5
2
0
-2
2
0
-1
-3
0
6
1
23
13
3
6
-1
-7
0
2
2
3
3
10
3
8
5
7
1
0
-1
6
10
17
16
7
23
29
16
-2
-5
-8
0
2
11
2
12
12
13
11
16
17
14
13
14
18
31
36
24
13
16
2
-2
2
49
31
37
33
31
31
21
18
15
9
7
10
17
29
30
36
38
33
10
-4
21
-21
21
24
19
19
9
12
9
6
4
-1
0
1
-3
-2
1
1
-3
5
16
19
11
-1
-4
-17
0
12
1
-5
-3
3
-5
-6
-8
-4
-5
-4
-8
-5
3
0
6
3
11
11
-3
-11
-21
-11
-9
-8
-10
-8
-6
1
-6
-17
-14
-13
-12
-10
-8
1
2
4
6
4
8
13
4
-6
-44
-15
-9
-13
-19
-12
-7
-11
-19
-17
-22
-12
-11
-5
-10
-8
-4
1
3
0
6
5
8
5
-39
-20
-11
-7
-17
-7
-3
-8
-8
-4
-9
-11
-10
-11
-8
-11
-12
-14
-8
-6
-4
-2
6
0
-47
-4
-4
-8
-15
-7
-10
-18
-16
-4
-12
-15
-11
-14
-13
-19
-16
-19
-15
-12
-16
-20
-19
-20
-49
-4
-6
-17
-18
-8
-9
-16
-13
-11
-11
-18
-13
-21
-24
-25
-27
-25
-12
-13
-21
-25
-37
-58
-49
-12
-8
-22
-17
-10
-9
-13
-10
-16
-14
-13
-16
-22
-25
-27
-27
-15
-11
-8
-20
-17
-18
-54
-53
-14
-15
-20
-13
-2
0
0
-5
-3
-6
-5
-16
-27
-21
-16
-15
-9
-3
-1
-1
2
-7
-42
-57
-10
-9
0
0
-1
2
3
0
-4
5
1
-12
-24
-12
-6
-16
-9
-8
1
11
27
15
-25
-52
-19
1
1
3
5
-1
-1
-3
0
7
-6
-15
-14
-7
-7
-7
-7
-4
4
12
32
20
-17
-36
-38
-14
0
3
-2
-3
5
7
7
0
-5
-10
-5
0
-12
-8
0
-1
5
10
26
20
-11
-44
-52
-16
4
4
0
5
7
4
14
4
0
-3
0
0
-5
-8
-7
3
3
3
4
3
-8
-41
-70
-18
-3
5
12
8
8
20
17
7
-5
2
-1
-5
-12
-2
4
2
5
3
0
0
-4
-34
-50
-19
-6
-1
9
9
11
17
24
7
-2
3
-1
-7
-4
2
6
3
6
6
2
9
0
-27
-35
-22
-8
-2
2
5
13
21
23
16
7
4
0
3
5
7
7
2
4
1
0
7
3
-30
-23
-18
-9
-1
-2
6
7
12
18
22
18
4
8
5
10
8
0
5
5
2
-2
2
-6
-26
-27
-26
-16
-1
3
0
7
18
20
18
16
21
16
15
7
12
8
5
3
2
1
2
-7
-27
-33
-31
-30
-16
-3
3
10
16
22
18
19
16
8
8
10
10
4
2
2
-2
-10
-10
-18
-31
-35
-31
-39
-32
-12
2
11
11
13
12
14
15
11
8
10
6
8
1
2
-6
-19
-29
-27
-27
-32
-34
-38
-33
-20
-8
0
-3
-1
4
1
3
1
7
0
-2
0
0
1
-11
-27
-33
-29
-24
-30
-46
-54
-37
-38
-19
-25
-25
-25
-18
-11
-10
-11
-7
-11
-6
-3
-5
-6
-21
-28
-35
-29
-6
-14
-27
-43
-47
-42
-37
-45
-55
-39
-22
-27
-40
-35
-24
-17
-19
-22
-29
-22
-37
-37
-33
-28
-22
-28
-48
-40
-49
-49
-59
-20
-51
-56
-52
-43
-45
-35
-37
-32
-24
-4
-21
-14
-12
-10
-16
-10
-24
19
-34
-12
-2
-51
-60
-49
-47
-56
-43
-60
-49
-52
-59
-50
-36
-19
-30
-35
-44
-36
-32
-18
-20
24
-4
4
-26
-5
1
-21
-44
-39
-20
-23
-28
-36
-38
-43
-41
-41
-27
-30
-19
-33
-26
-20
-11
0
15
24
22
31
21
15
12
8
5
6
10
0
-5
-11
-13
-24
-41
-32
-30
-38
-32
-18
26
17
7
12
11
12
13
14
11
11
11
8
-3
-2
2
1
-4
-13
-7
-6
-8
-17
-26
-29
43
22
8
4
16
15
11
9
11
13
12
7
0
7
6
9
8
5
5
0
0
-10
-22
-24
39
24
7
3
16
17
15
8
16
17
19
13
7
12
16
12
17
13
2
1
0
7
-10
-32
29
16
9
6
15
14
13
5
4
6
14
9
13
16
21
20
15
14
6
3
4
-1
-12
-18
30
17
8
13
10
2
-1
3
3
3
7
12
15
18
22
16
13
15
10
10
8
-4
-16
-22
42
19
7
3
-1
0
-1
3
4
2
2
8
18
23
25
23
20
17
12
14
7
-5
-27
-26
45
33
11
1
5
7
8
1
3
-1
-12
-22
-2
16
18
23
9
2
0
10
2
-17
-24
-21
42
31
19
7
-1
9
4
2
3
-10
-38
-45
-13
11
16
17
4
0
2
1
0
-9
-9
-3
33
26
13
6
1
1
-9
-10
0
-16
-48
-36
-7
4
5
13
14
8
13
6
6
0
-3
-11
28
12
5
-4
-4
-6
-11
-6
-8
-22
-35
-26
-11
-4
5
14
15
14
16
7
3
2
-12
-43
9
0
-4
-7
1
2
-4
-9
-18
-29
-26
-9
-5
-6
2
13
13
12
9
4
2
-8
-20
-36
0
-4
-1
-3
-8
-5
-2
-5
-20
-23
-9
-8
-5
0
2
3
7
2
1
-1
-5
-13
-14
-14
2
4
7
0
-12
-8
-11
-17
-23
-16
-14
-6
0
-1
0
0
-2
0
-4
-2
-10
-22
-20
-13
6
0
-1
-5
-18
-16
-18
-20
-26
-20
-10
0
3
-8
-7
-14
-10
-9
-7
-7
-21
-24
-27
-13
0
-3
-16
-17
-36
-26
-18
-19
-22
-19
-13
-2
-2
-8
-20
-20
-21
-27
-18
-26
-31
-31
-23
-14
-15
-30
-28
-27
-37
-25
-13
-15
-17
-9
-5
-3
-5
-4
-10
-21
-18
-22
-27
-27
-26
-38
-24
-10
-38
-36
-24
-20
-15
-10
-12
-15
-15
-9
-9
-13
-12
-9
-9
-18
-24
-23
-23
-33
-35
-52
-35
-6
-37
-31
-11
1
8
0
-12
-15
-15
-16
-19
-14
-13
-6
-8
-18
-24
-26
-33
-32
-41
-44
-54
-27
-22
-4
13
18
14
11
0
-3
-4
-2
-2
-3
-2
-7
-10
-8
-17
-18
-26
-28
-24
-34
-48
-35
-6
15
17
17
8
3
12
10
13
13
16
8
13
12
12
9
11
2
-9
-15
-8
-23
-37
-22
-32
-39
-18
10
18
-14
-27
-32
-34
-38
-56
-54
-30
-36
-48
-27
-11
-34
-32
-32
-11
-5
-10
-10
-19
-32
3
-10
-18
-27
-24
-14
-8
-16
-5
-12
-7
-15
-18
-6
-4
-14
-10
-4
9
12
-1
-8
-6
-16
-28
-22
-17
-8
-3
-1
-2
3
-2
6
7
7
4
3
1
6
3
3
0
1
8
24
0
-30
-33
-33
-11
-1
3
-8
-4
1
8
7
8
7
3
6
1
2
3
2
-8
-11
-2
18
-19
-17
-21
-16
-11
-3
-1
-7
-3
1
-1
-3
1
0
4
0
0
2
9
-3
0
-3
0
12
-25
-9
-7
-7
-7
1
0
-2
-3
-2
2
0
0
7
4
-3
0
1
3
1
1
-2
0
1
7
-4
-2
-5
1
3
2
6
0
-1
2
2
-2
-1
1
1
3
3
4
2
1
6
9
17
-7
1
-3
0
7
3
2
1
7
2
0
-6
-8
-9
-4
-1
0
1
7
7
9
4
9
9
-24
-4
-6
5
0
5
7
6
7
9
14
8
-6
-20
-13
0
2
3
2
1
2
1
-6
-16
-24
-8
-4
1
5
8
9
10
7
9
5
7
1
-8
-12
-8
0
7
6
8
6
8
1
-16
-1
0
5
4
8
4
10
8
0
-1
-2
5
6
-2
-7
-5
-2
3
4
14
15
18
16
4
3
0
6
5
3
6
0
0
-7
0
7
9
7
0
-2
1
-4
2
0
1
3
15
20
3
-4
-10
-4
-1
-3
-13
-9
-8
-8
3
8
8
5
0
-4
-6
-6
-2
-3
-4
-9
-7
-4
0
-4
-30
-21
-10
-12
-17
-15
-12
-1
1
12
7
7
2
-4
-7
-4
-1
-14
-9
-16
-21
-25
-11
-13
-9
-34
-25
-11
-9
-5
0
-8
0
4
7
2
-1
-4
-6
-7
-11
-10
-19
-14
-17
-12
-23
-16
-16
-42
-31
-12
-4
2
2
3
12
13
9
-4
0
-3
0
-10
-12
-12
-13
-19
-6
-10
-22
-34
-50
-23
-5
-12
-4
1
1
7
7
7
6
-8
-4
-6
-9
-8
-7
-10
-13
-11
-2
-3
-21
-54
-42
-14
-2
-3
-7
0
1
5
7
3
-4
-13
-7
-5
-5
-8
0
-5
-3
2
8
-4
-24
-64
-31
-12
-8
0
3
3
3
2
-4
-4
-1
-5
-9
-8
-6
-1
2
1
1
0
9
-4
-33
-47
-23
-13
-2
0
5
2
4
0
3
0
-1
1
-2
-5
-6
-7
-4
1
1
-1
2
-11
-35
-46
-11
-5
-4
6
4
0
-2
0
-2
0
6
2
-2
3
0
2
-2
-1
1
3
9
-8
-24
-40
-10
-6
-8
-7
-5
5
1
1
5
4
9
9
3
2
0
7
1
2
3
8
-1
3
-23
-22
-21
-20
-20
-22
-5
1
2
2
4
11
6
6
9
10
7
3
14
11
1
0
-2
-11
-38
-18
-30
-42
-36
-28
-12
-10
-11
-9
0
-4
-9
-2
2
6
-1
0
10
5
-9
-14
-23
-31
-39
-15
-14
-21
-24
-29
-33
-2
-30
-56
-67
-83
-93
-101
-65
-52
-31
-18
-11
-14
-10
-22
-21
-15
-14
-20
-25
-30
-6
-21
-21
-27
-21
-90
-96
-121
-104
-108
-90
-84
-58
-41
-33
-46
-46
-36
-33
-32
-23
-33
-45
8
-36
-23
-36
-73
-81
-71
-35
-26
-21
-24
-33
-34
-31
-29
-36
-46
-55
-63
-50
-39
-32
-36
-29
-6
-47
-51
-63
-48
-30
-10
0
4
7
10
0
-9
-6
-9
-7
-6
-15
-45
-76
-59
-41
-17
-13
-49
-78
-45
-29
-17
-10
-1
9
18
10
12
10
11
6
11
6
0
-3
-17
-35
-36
-21
-33
-9
-55
-41
-26
-19
-7
-6
-3
-2
3
14
13
8
11
6
0
0
3
-3
-7
-19
-23
-31
-44
-36
-32
-16
-11
-9
-5
-4
-1
-3
0
6
18
12
12
5
6
3
0
-1
-6
-16
-19
-31
-31
-29
-25
-8
-1
0
-2
-2
5
-3
2
3
10
10
0
-1
-5
-2
-4
-4
-9
-8
-21
-30
-25
-22
-18
1
1
6
0
0
1
2
7
1
1
0
-4
1
4
-1
-3
-7
-9
-18
-21
-29
-35
-25
-3
0
9
4
5
10
9
16
11
5
4
1
6
10
6
6
6
5
-7
-10
-30
-36
-37
-11
10
7
5
11
7
12
8
7
-7
0
7
8
14
15
10
11
18
14
13
3
-24
-67
-27
-2
15
15
13
7
7
5
7
-1
-12
3
9
13
16
9
13
11
15
8
9
-5
-28
-75
-13
8
9
11
7
9
6
3
3
-2
-5
5
1
6
13
10
4
10
12
10
-1
-23
-49
-75
-3
10
6
4
8
2
3
-2
-2
-2
0
-5
-8
9
11
12
2
-1
5
3
-2
-24
-59
-80
-6
4
2
-2
2
2
2
-3
-3
2
-1
-10
-2
2
10
6
3
-5
-9
-11
-12
-20
-49
-78
-29
-13
-3
-6
-9
2
2
-4
2
0
-4
-12
0
2
4
7
1
-6
-11
-8
-9
-27
-47
-65
-20
-19
-20
-21
-10
-1
0
0
4
4
-12
-10
-1
6
2
2
-4
0
-4
-8
-19
-32
-54
-60
-28
-33
-20
-17
-5
-3
-13
-11
-7
-6
-15
-8
-5
0
-2
-4
-11
-3
-7
-11
-19
-25
-26
-34
-47
-33
-13
-5
-3
-10
-12
-17
-21
-27
-22
-14
-6
-7
-5
-10
-7
-3
-5
-14
-29
-22
-9
-4
-44
-22
-1
4
0
-5
-8
-10
-14
-19
-20
-11
-13
-9
-6
-11
-14
-12
-8
-18
-29
-15
-2
5
-8
0
-7
-7
-14
-11
-9
-4
-6
-7
-5
-8
-6
-9
-5
-13
-16
-14
-17
-10
-16
-5
5
10
-16
0
-12
-20
-21
-10
-10
-11
-14
-7
-14
-9
-11
-9
-16
-9
-13
-12
-13
-9
-2
12
8
8
-4
-6
-1
-1
-6
0
1
-3
-2
-6
-6
-13
-13
-8
-3
-2
-8
-3
5
10
8
12
1
-15
-10
-7
14
25
33
24
21
17
14
15
14
12
12
12
13
16
12
20
26
25
16
6
0
-13
